TRT-8400-EntropyCalibration2
input.1: 4b0007ef
attention_mask: 4b0007f0
input.3: 4b0007d1
206: 4b0007f0
207: 4b0007f0
(Unnamed Layer* 4) [Shuffle]_output: 3c010a14
209: 4b0007f0
211: 519c49b0
(Unnamed Layer* 13) [Constant]_output: 4080c98f
221: 3f800800
222: 0
223: 3a37a4a9
224: 0
225: 3a37a4a9
226: 3a37a4a9
228: 37a9d08c
229: 3a284032
230: 3a284032
(Unnamed Layer* 40) [Shuffle]_output: 3c810a14
232: 3810ca3b
233: 366d5837
(Unnamed Layer* 44) [Shuffle]_output: 280de15b
235: 366d5837
236: 392f0151
237: 3d070aef
(Unnamed Layer* 49) [Shuffle]_output: 3c010a14
238: 3d070aef
(Unnamed Layer* 52) [Shuffle]_output: 0
239: 3d070aef
(Unnamed Layer* 55) [Shuffle]_output: 3a30c8f5
241: 3c8c9fbd
(Unnamed Layer* 58) [Shuffle]_output: 0
242: 3c8c9fbd
(Unnamed Layer* 61) [Shuffle]_output: 3a3fa134
244: 3c930325
(Unnamed Layer* 64) [Shuffle]_output: 0
245: 3c930325
(Unnamed Layer* 67) [Shuffle]_output: 3a339220
247: 3c94d1d4
(Unnamed Layer* 70) [Shuffle]_output: 0
248: 3c94d1d4
263: 3c8c9fbd
292: 3c94d1d4
293: 3c930325
294: 3dba6ebd
(Unnamed Layer* 113) [Shuffle]_output: 3d810a14
296: 3c3a6ebd
297: 519c49b0
(Unnamed Layer* 116) [Shuffle]_output: 519c49b0
(Unnamed Layer* 117) [Softmax]_output: 3c010a14
298: 3c010a14
299: 3c89d8ce
312: 3c89d8ce
(Unnamed Layer* 133) [Shuffle]_output: 3a3814fe
314: 3c2043ea
(Unnamed Layer* 136) [Shuffle]_output: 0
315: 3c2043ea
316: 3d1af7bb
318: 3947d296
319: 3d177db1
320: 3d177db1
(Unnamed Layer* 143) [Shuffle]_output: 3c810a14
322: 3dcc2d10
323: 3c18129f
(Unnamed Layer* 147) [Shuffle]_output: 280de15b
325: 3c18129f
326: 3c0abf53
327: 3d1119b3
(Unnamed Layer* 152) [Shuffle]_output: 3c010a14
328: 3d1119b3
(Unnamed Layer* 155) [Shuffle]_output: 0
329: 3d1119b3
(Unnamed Layer* 158) [Shuffle]_output: 3a3f651b
331: 3cae72d9
(Unnamed Layer* 161) [Shuffle]_output: 0
332: 3cae72d9
(Unnamed Layer* 164) [Shuffle]_output: 3c367d3d
334: 3c76b526
335: 3bffd935
(Unnamed Layer* 168) [Shuffle]_output: 3c010a14
337: 3c807637
338: 3ceae3e8
(Unnamed Layer* 172) [Shuffle]_output: 3b810a14
340: 3c6ae3e8
(Unnamed Layer* 175) [Shuffle]_output: 3a44a85b
342: 3c5b45c7
(Unnamed Layer* 178) [Shuffle]_output: 0
343: 3c5b45c7
344: 3d1c871c
346: 39ae77d9
347: 3d1c85fd
348: 3d1c85fd
(Unnamed Layer* 185) [Shuffle]_output: 3c810a14
350: 3ddec718
351: 3c1c905a
(Unnamed Layer* 189) [Shuffle]_output: 280de15b
353: 3c1c905a
354: 3c0e46c6
355: 3d1bebb5
(Unnamed Layer* 194) [Shuffle]_output: 3c010a14
356: 3d1bebb5
(Unnamed Layer* 197) [Shuffle]_output: 0
357: 3d1bebb5
(Unnamed Layer* 200) [Shuffle]_output: 3a329988
359: 3ca3f947
(Unnamed Layer* 203) [Shuffle]_output: 0
360: 3ca3f947
(Unnamed Layer* 206) [Shuffle]_output: 3a371295
362: 3ca00185
(Unnamed Layer* 209) [Shuffle]_output: 0
363: 3ca00185
(Unnamed Layer* 212) [Shuffle]_output: 3a3220b0
365: 3ca55628
(Unnamed Layer* 215) [Shuffle]_output: 0
366: 3ca55628
381: 3ca3f947
410: 3ca55628
411: 3ca00185
412: 3dc7cd8a
(Unnamed Layer* 258) [Shuffle]_output: 3d810a14
414: 3c47cd8a
415: 519c49b0
(Unnamed Layer* 261) [Shuffle]_output: 519c49b0
(Unnamed Layer* 262) [Softmax]_output: 3c010a14
416: 3c010a14
417: 3c821708
430: 3c821708
(Unnamed Layer* 278) [Shuffle]_output: 3a39120f
432: 3c15124d
(Unnamed Layer* 281) [Shuffle]_output: 0
433: 3c15124d
434: 3d262a73
436: 395e6a34
437: 3d1ae1eb
438: 3d1ae1eb
(Unnamed Layer* 288) [Shuffle]_output: 3c810a14
440: 3dcf6377
441: 3c155d25
(Unnamed Layer* 292) [Shuffle]_output: 280de15b
443: 3c155d25
444: 3c0ab227
445: 3d1806a4
(Unnamed Layer* 297) [Shuffle]_output: 3c010a14
446: 3d1806a4
(Unnamed Layer* 300) [Shuffle]_output: 0
447: 3d1806a4
(Unnamed Layer* 303) [Shuffle]_output: 3a408b58
449: 3ca82e37
(Unnamed Layer* 306) [Shuffle]_output: 0
450: 3ca82e37
(Unnamed Layer* 309) [Shuffle]_output: 3c367d3d
452: 3c6dd7dc
453: 3c00bc86
(Unnamed Layer* 313) [Shuffle]_output: 3c010a14
455: 3c80829a
456: 3cff8c2e
(Unnamed Layer* 317) [Shuffle]_output: 3b810a14
458: 3c7f8c2e
(Unnamed Layer* 320) [Shuffle]_output: 3a43e531
460: 3c5a07e3
(Unnamed Layer* 323) [Shuffle]_output: 0
461: 3c5a07e3
462: 3d25178d
464: 399cabdd
465: 3d24f457
466: 3d24f457
(Unnamed Layer* 330) [Shuffle]_output: 3c810a14
468: 3ddf3b2f
469: 3c1de0e9
(Unnamed Layer* 334) [Shuffle]_output: 280de15b
471: 3c1de0e9
472: 3c0e23ae
473: 3d19706a
(Unnamed Layer* 339) [Shuffle]_output: 3c010a14
474: 3d19706a
(Unnamed Layer* 342) [Shuffle]_output: 0
475: 3d19706a
(Unnamed Layer* 345) [Shuffle]_output: 3a3a54c8
477: 3ca9daf4
(Unnamed Layer* 348) [Shuffle]_output: 0
478: 3ca9daf4
(Unnamed Layer* 351) [Shuffle]_output: 3a33587a
480: 3ca1ec71
(Unnamed Layer* 354) [Shuffle]_output: 0
481: 3ca1ec71
(Unnamed Layer* 357) [Shuffle]_output: 3a3ec954
483: 3ca2a975
(Unnamed Layer* 360) [Shuffle]_output: 0
484: 3ca2a975
499: 3ca9daf4
528: 3ca2a975
529: 3ca1ec71
530: 3dc74bd3
(Unnamed Layer* 403) [Shuffle]_output: 3d810a14
532: 3c474bd3
533: 519c49b0
(Unnamed Layer* 406) [Shuffle]_output: 519c49b0
(Unnamed Layer* 407) [Softmax]_output: 3c010a14
534: 3c010a14
535: 3c83fabe
548: 3c83fabe
(Unnamed Layer* 423) [Shuffle]_output: 3a435fc2
550: 3c12f699
(Unnamed Layer* 426) [Shuffle]_output: 0
551: 3c12f699
552: 3d265260
554: 3948912d
555: 3d199bbf
556: 3d199bbf
(Unnamed Layer* 433) [Shuffle]_output: 3c810a14
558: 3dcb9f1e
559: 3c187f5b
(Unnamed Layer* 437) [Shuffle]_output: 280de15b
561: 3c187f5b
562: 3c0b981a
563: 3d244ee1
(Unnamed Layer* 442) [Shuffle]_output: 3c010a14
564: 3d244ee1
(Unnamed Layer* 445) [Shuffle]_output: 0
565: 3d244ee1
(Unnamed Layer* 448) [Shuffle]_output: 3a3e7a6e
567: 3ca926e5
(Unnamed Layer* 451) [Shuffle]_output: 0
568: 3ca926e5
(Unnamed Layer* 454) [Shuffle]_output: 3c367d3d
570: 3c6f3789
571: 3c001cdf
(Unnamed Layer* 458) [Shuffle]_output: 3c010a14
573: 3c8032bd
574: 3cd9208b
(Unnamed Layer* 462) [Shuffle]_output: 3b810a14
576: 3c59208b
(Unnamed Layer* 465) [Shuffle]_output: 3a4f698c
578: 3c592033
(Unnamed Layer* 468) [Shuffle]_output: 0
579: 3c592033
580: 3d214c67
582: 39cb068b
583: 3d20594b
584: 3d20594b
(Unnamed Layer* 475) [Shuffle]_output: 3c810a14
586: 3dce6231
587: 3c1f6f94
(Unnamed Layer* 479) [Shuffle]_output: 280de15b
589: 3c1f6f94
590: 3c0ddbad
591: 3d1a973c
(Unnamed Layer* 484) [Shuffle]_output: 3c010a14
592: 3d1a973c
(Unnamed Layer* 487) [Shuffle]_output: 0
593: 3d1a973c
(Unnamed Layer* 490) [Shuffle]_output: 3a3a6e56
595: 3ca203fb
(Unnamed Layer* 493) [Shuffle]_output: 0
596: 3ca203fb
(Unnamed Layer* 496) [Shuffle]_output: 3a37adc4
598: 3ca67421
(Unnamed Layer* 499) [Shuffle]_output: 0
599: 3ca67421
(Unnamed Layer* 502) [Shuffle]_output: 3a410988
601: 3caad5b8
(Unnamed Layer* 505) [Shuffle]_output: 0
602: 3caad5b8
617: 3ca203fb
646: 3caad5b8
647: 3ca67421
648: 3dd1f811
(Unnamed Layer* 548) [Shuffle]_output: 3d810a14
650: 3c51f811
651: 519c49b0
(Unnamed Layer* 551) [Shuffle]_output: 519c49b0
(Unnamed Layer* 552) [Softmax]_output: 3c010a14
652: 3c010a14
653: 3c8331a1
666: 3c8331a1
(Unnamed Layer* 568) [Shuffle]_output: 3a323872
668: 3c15b587
(Unnamed Layer* 571) [Shuffle]_output: 0
669: 3c15b587
670: 3d1d4a99
672: 395fcd36
673: 3d1df780
674: 3d1df780
(Unnamed Layer* 578) [Shuffle]_output: 3c810a14
676: 3dcce714
677: 3c17afa1
(Unnamed Layer* 582) [Shuffle]_output: 280de15b
679: 3c17afa1
680: 3c0b4153
681: 3d1a279e
(Unnamed Layer* 587) [Shuffle]_output: 3c010a14
682: 3d1a279e
(Unnamed Layer* 590) [Shuffle]_output: 0
683: 3d1a279e
(Unnamed Layer* 593) [Shuffle]_output: 3a41d733
685: 3ca918bd
(Unnamed Layer* 596) [Shuffle]_output: 0
686: 3ca918bd
(Unnamed Layer* 599) [Shuffle]_output: 3c367d3d
688: 3c6f2386
689: 3c00648c
(Unnamed Layer* 603) [Shuffle]_output: 3c010a14
691: 3c804efe
692: 3cd868fc
(Unnamed Layer* 607) [Shuffle]_output: 3b810a14
694: 3c5868fc
(Unnamed Layer* 610) [Shuffle]_output: 3a3b161f
696: 3c5584d9
(Unnamed Layer* 613) [Shuffle]_output: 0
697: 3c5584d9
698: 3d1cdd41
700: 39ca068a
701: 3d1feb3e
702: 3d1feb3e
(Unnamed Layer* 620) [Shuffle]_output: 3c810a14
704: 3dc4977c
705: 3c1e1eec
(Unnamed Layer* 624) [Shuffle]_output: 280de15b
707: 3c1e1eec
708: 3c0f5589
709: 3d16227b
(Unnamed Layer* 629) [Shuffle]_output: 3c010a14
710: 3d16227b
(Unnamed Layer* 632) [Shuffle]_output: 0
711: 3d16227b
(Unnamed Layer* 635) [Shuffle]_output: 3a36b567
713: 3ca03b8b
(Unnamed Layer* 638) [Shuffle]_output: 0
714: 3ca03b8b
(Unnamed Layer* 641) [Shuffle]_output: 3a397301
716: 3ca675c8
(Unnamed Layer* 644) [Shuffle]_output: 0
717: 3ca675c8
(Unnamed Layer* 647) [Shuffle]_output: 3a2f18ae
719: 3ca201be
(Unnamed Layer* 650) [Shuffle]_output: 0
720: 3ca201be
735: 3ca03b8b
764: 3ca201be
765: 3ca675c8
766: 3dc778fc
(Unnamed Layer* 693) [Shuffle]_output: 3d810a14
768: 3c4778fc
769: 519c49b0
(Unnamed Layer* 696) [Shuffle]_output: 519c49b0
(Unnamed Layer* 697) [Softmax]_output: 3c010a14
770: 3c010a14
771: 3c894764
784: 3c894764
(Unnamed Layer* 713) [Shuffle]_output: 3a3d410c
786: 3c138970
(Unnamed Layer* 716) [Shuffle]_output: 0
787: 3c138970
788: 3d1e34d7
790: 3956f346
791: 3d1b2ca8
792: 3d1b2ca8
(Unnamed Layer* 723) [Shuffle]_output: 3c810a14
794: 3dd92ee5
795: 3c17bd16
(Unnamed Layer* 727) [Shuffle]_output: 280de15b
797: 3c17bd16
798: 3c0a6c8c
799: 3d1bdd71
(Unnamed Layer* 732) [Shuffle]_output: 3c010a14
800: 3d1bdd71
(Unnamed Layer* 735) [Shuffle]_output: 0
801: 3d1bdd71
(Unnamed Layer* 738) [Shuffle]_output: 3a3cb20d
803: 3caca0a9
(Unnamed Layer* 741) [Shuffle]_output: 0
804: 3caca0a9
(Unnamed Layer* 744) [Shuffle]_output: 3c367d3d
806: 3c7421dd
807: 3bffdcdf
(Unnamed Layer* 748) [Shuffle]_output: 3c010a14
809: 3c80549c
810: 3cd86776
(Unnamed Layer* 752) [Shuffle]_output: 3b810a14
812: 3c586776
(Unnamed Layer* 755) [Shuffle]_output: 3a3eeaa0
814: 3c60316d
(Unnamed Layer* 758) [Shuffle]_output: 0
815: 3c60316d
816: 3d1f043e
818: 39b6d493
819: 3d2afec7
820: 3d2afec7
(Unnamed Layer* 765) [Shuffle]_output: 3c810a14
822: 3de0b641
823: 3c1f5ff5
(Unnamed Layer* 769) [Shuffle]_output: 280de15b
825: 3c1f5ff5
826: 3c0ebdb5
827: 3d1cf803
(Unnamed Layer* 774) [Shuffle]_output: 3c010a14
828: 3d1cf803
(Unnamed Layer* 777) [Shuffle]_output: 0
829: 3d1cf803
(Unnamed Layer* 780) [Shuffle]_output: 3a349f4e
831: 3ca25eeb
(Unnamed Layer* 783) [Shuffle]_output: 0
832: 3ca25eeb
(Unnamed Layer* 786) [Shuffle]_output: 3a4b491e
834: 3cb1e505
(Unnamed Layer* 789) [Shuffle]_output: 0
835: 3cb1e505
(Unnamed Layer* 792) [Shuffle]_output: 3a302312
837: 3ca6b7a2
(Unnamed Layer* 795) [Shuffle]_output: 0
838: 3ca6b7a2
853: 3ca25eeb
882: 3ca6b7a2
883: 3cb1e505
884: 3dc833f5
(Unnamed Layer* 838) [Shuffle]_output: 3d810a14
886: 3c4833f5
887: 519c49b0
(Unnamed Layer* 841) [Shuffle]_output: 519c49b0
(Unnamed Layer* 842) [Softmax]_output: 3c010a14
888: 3c010a14
889: 3c80e0c6
902: 3c80e0c6
(Unnamed Layer* 858) [Shuffle]_output: 3a41323a
904: 3c0d34a4
(Unnamed Layer* 861) [Shuffle]_output: 0
905: 3c0d34a4
906: 3d1e51f2
908: 392744a4
909: 3d1d31b3
910: 3d1d31b3
(Unnamed Layer* 868) [Shuffle]_output: 3c810a14
912: 3dd3c106
913: 3c15917a
(Unnamed Layer* 872) [Shuffle]_output: 280de15b
915: 3c15917a
916: 3c0ab8bb
917: 3d139f33
(Unnamed Layer* 877) [Shuffle]_output: 3c010a14
918: 3d139f33
(Unnamed Layer* 880) [Shuffle]_output: 0
919: 3d139f33
(Unnamed Layer* 883) [Shuffle]_output: 3a48b43d
921: 3cac131b
(Unnamed Layer* 886) [Shuffle]_output: 0
922: 3cac131b
(Unnamed Layer* 889) [Shuffle]_output: 3c367d3d
924: 3c7359ab
925: 3bff39bd
(Unnamed Layer* 893) [Shuffle]_output: 3c010a14
927: 3c7fd745
928: 3ceb1083
(Unnamed Layer* 897) [Shuffle]_output: 3b810a14
930: 3c6b1083
(Unnamed Layer* 900) [Shuffle]_output: 3a36b5f2
932: 3c59e30d
(Unnamed Layer* 903) [Shuffle]_output: 0
933: 3c59e30d
934: 3d1f4c15
936: 399313ae
937: 3d2285cb
938: 3d2285cb
(Unnamed Layer* 910) [Shuffle]_output: 3c810a14
940: 3dccb021
941: 3c1e5d47
(Unnamed Layer* 914) [Shuffle]_output: 280de15b
943: 3c1e5d47
944: 3c0f68bc
945: 3d123187
(Unnamed Layer* 919) [Shuffle]_output: 3c010a14
946: 3d123187
(Unnamed Layer* 922) [Shuffle]_output: 0
947: 3d123187
(Unnamed Layer* 925) [Shuffle]_output: 3a3e674e
949: 3ca36e4c
(Unnamed Layer* 928) [Shuffle]_output: 0
950: 3ca36e4c
(Unnamed Layer* 931) [Shuffle]_output: 3a3b93f1
952: 3ca140f3
(Unnamed Layer* 934) [Shuffle]_output: 0
953: 3ca140f3
(Unnamed Layer* 937) [Shuffle]_output: 3a44d32c
955: 3ca8079f
(Unnamed Layer* 940) [Shuffle]_output: 0
956: 3ca8079f
971: 3ca36e4c
1000: 3ca8079f
1001: 3ca140f3
1002: 3dbf94b8
(Unnamed Layer* 983) [Shuffle]_output: 3d810a14
1004: 3c3f94b8
1005: 519c49b0
(Unnamed Layer* 986) [Shuffle]_output: 519c49b0
(Unnamed Layer* 987) [Softmax]_output: 3c010a14
1006: 3c010a14
1007: 3c8c70fe
1020: 3c8c70fe
(Unnamed Layer* 1003) [Shuffle]_output: 3a4dd041
1022: 3c2346f5
(Unnamed Layer* 1006) [Shuffle]_output: 0
1023: 3c2346f5
1024: 3d17feab
1026: 393da1ee
1027: 3d1cf918
1028: 3d1cf918
(Unnamed Layer* 1013) [Shuffle]_output: 3c810a14
1030: 3dc2974f
1031: 3c157a79
(Unnamed Layer* 1017) [Shuffle]_output: 280de15b
1033: 3c157a79
1034: 3c0a3ce2
1035: 3d154667
(Unnamed Layer* 1022) [Shuffle]_output: 3c010a14
1036: 3d154667
(Unnamed Layer* 1025) [Shuffle]_output: 0
1037: 3d154667
(Unnamed Layer* 1028) [Shuffle]_output: 3a422e1d
1039: 3caa2ea4
(Unnamed Layer* 1031) [Shuffle]_output: 0
1040: 3caa2ea4
(Unnamed Layer* 1034) [Shuffle]_output: 3c367d3d
1042: 3c70ac89
1043: 3c001a5f
(Unnamed Layer* 1038) [Shuffle]_output: 3c010a14
1045: 3c804a24
1046: 3cd8c8ab
(Unnamed Layer* 1042) [Shuffle]_output: 3b810a14
1048: 3c58c8ab
(Unnamed Layer* 1045) [Shuffle]_output: 3a38fd59
1050: 3c5a3fec
(Unnamed Layer* 1048) [Shuffle]_output: 0
1051: 3c5a3fec
1052: 3d1a4a33
1054: 39c96290
1055: 3d22ee08
1056: 3d22ee08
(Unnamed Layer* 1055) [Shuffle]_output: 3c810a14
1058: 3de8a4d2
1059: 3c1b6806
(Unnamed Layer* 1059) [Shuffle]_output: 280de15b
1061: 3c1b6806
1062: 3c0dff12
1063: 3d17e8ac
(Unnamed Layer* 1064) [Shuffle]_output: 3c010a14
1064: 3d17e8ac
(Unnamed Layer* 1067) [Shuffle]_output: 0
1065: 3d17e8ac
(Unnamed Layer* 1070) [Shuffle]_output: 3a3ca1f9
1067: 3ca5a304
(Unnamed Layer* 1073) [Shuffle]_output: 0
1068: 3ca5a304
(Unnamed Layer* 1076) [Shuffle]_output: 3a4fcc75
1070: 3ca42088
(Unnamed Layer* 1079) [Shuffle]_output: 0
1071: 3ca42088
(Unnamed Layer* 1082) [Shuffle]_output: 3a3faecb
1073: 3ca1c5cb
(Unnamed Layer* 1085) [Shuffle]_output: 0
1074: 3ca1c5cb
1089: 3ca5a304
1118: 3ca1c5cb
1119: 3ca42088
1120: 3dcfb53b
(Unnamed Layer* 1128) [Shuffle]_output: 3d810a14
1122: 3c4fb53b
1123: 519c49b0
(Unnamed Layer* 1131) [Shuffle]_output: 519c49b0
(Unnamed Layer* 1132) [Softmax]_output: 3c010a14
1124: 3c010a14
1125: 3c82b64c
1138: 3c82b64c
(Unnamed Layer* 1148) [Shuffle]_output: 3a38f68b
1140: 3c107566
(Unnamed Layer* 1151) [Shuffle]_output: 0
1141: 3c107566
1142: 3d1da16a
1144: 39901847
1145: 3d1bd8e6
1146: 3d1bd8e6
(Unnamed Layer* 1158) [Shuffle]_output: 3c810a14
1148: 3dc70c13
1149: 3c14692e
(Unnamed Layer* 1162) [Shuffle]_output: 280de15b
1151: 3c14692e
1152: 3c099ba0
1153: 3d1d385d
(Unnamed Layer* 1167) [Shuffle]_output: 3c010a14
1154: 3d1d385d
(Unnamed Layer* 1170) [Shuffle]_output: 0
1155: 3d1d385d
(Unnamed Layer* 1173) [Shuffle]_output: 3a38e5f6
1157: 3ca8023e
(Unnamed Layer* 1176) [Shuffle]_output: 0
1158: 3ca8023e
(Unnamed Layer* 1179) [Shuffle]_output: 3c367d3d
1160: 3c6d99ab
1161: 3c0043e6
(Unnamed Layer* 1183) [Shuffle]_output: 3c010a14
1163: 3c807698
1164: 3cd93a8e
(Unnamed Layer* 1187) [Shuffle]_output: 3b810a14
1166: 3c593a8e
(Unnamed Layer* 1190) [Shuffle]_output: 3a3b5520
1168: 3c5fb672
(Unnamed Layer* 1193) [Shuffle]_output: 0
1169: 3c5fb672
1170: 3d2432ee
1172: 39b038ab
1173: 3d18b843
1174: 3d18b843
(Unnamed Layer* 1200) [Shuffle]_output: 3c810a14
1176: 3dcc5406
1177: 3c1c9a1e
(Unnamed Layer* 1204) [Shuffle]_output: 280de15b
1179: 3c1c9a1e
1180: 3c0dd786
1181: 3d1c9f71
(Unnamed Layer* 1209) [Shuffle]_output: 3c010a14
1182: 3d1c9f71
(Unnamed Layer* 1212) [Shuffle]_output: 0
1183: 3d1c9f71
(Unnamed Layer* 1215) [Shuffle]_output: 3a369661
1185: 3ca2f284
(Unnamed Layer* 1218) [Shuffle]_output: 0
1186: 3ca2f284
(Unnamed Layer* 1221) [Shuffle]_output: 3a3e2579
1188: 3cb3152f
(Unnamed Layer* 1224) [Shuffle]_output: 0
1189: 3cb3152f
(Unnamed Layer* 1227) [Shuffle]_output: 3a3d8798
1191: 3ca6d5fb
(Unnamed Layer* 1230) [Shuffle]_output: 0
1192: 3ca6d5fb
1207: 3ca2f284
1236: 3ca6d5fb
1237: 3cb3152f
1238: 3dc67f38
(Unnamed Layer* 1273) [Shuffle]_output: 3d810a14
1240: 3c467f38
1241: 519c49b0
(Unnamed Layer* 1276) [Shuffle]_output: 519c49b0
(Unnamed Layer* 1277) [Softmax]_output: 3c010a14
1242: 3c010a14
1243: 3c973ac7
1256: 3c973ac7
(Unnamed Layer* 1293) [Shuffle]_output: 3a418081
1258: 3c154bce
(Unnamed Layer* 1296) [Shuffle]_output: 0
1259: 3c154bce
1260: 3d1f22e7
1262: 397d0b1a
1263: 3d258b80
1264: 3d258b80
(Unnamed Layer* 1303) [Shuffle]_output: 3c810a14
1266: 3dce7fdf
1267: 3c15fea6
(Unnamed Layer* 1307) [Shuffle]_output: 280de15b
1269: 3c15fea6
1270: 3c0abfca
1271: 3d190c58
(Unnamed Layer* 1312) [Shuffle]_output: 3c010a14
1272: 3d190c58
(Unnamed Layer* 1315) [Shuffle]_output: 0
1273: 3d190c58
(Unnamed Layer* 1318) [Shuffle]_output: 3a3ffde4
1275: 3ca72286
(Unnamed Layer* 1321) [Shuffle]_output: 0
1276: 3ca72286
(Unnamed Layer* 1324) [Shuffle]_output: 3c367d3d
1278: 3c6c5d4a
1279: 3bffff78
(Unnamed Layer* 1328) [Shuffle]_output: 3c010a14
1281: 3c7feb76
1282: 3cea3c5d
(Unnamed Layer* 1332) [Shuffle]_output: 3b810a14
1284: 3c6a3c5d
(Unnamed Layer* 1335) [Shuffle]_output: 3a420def
1286: 3c675672
(Unnamed Layer* 1338) [Shuffle]_output: 0
1287: 3c675672
1288: 3d1e123f
1290: 39d09759
1291: 3d20280d
1292: 3d20280d
(Unnamed Layer* 1345) [Shuffle]_output: 3c810a14
1294: 3dca233b
1295: 3c208a58
(Unnamed Layer* 1349) [Shuffle]_output: 280de15b
1297: 3c208a58
1298: 3c0f3a61
1299: 3d150c8e
(Unnamed Layer* 1354) [Shuffle]_output: 3c010a14
1300: 3d150c8e
(Unnamed Layer* 1357) [Shuffle]_output: 0
1301: 3d150c8e
(Unnamed Layer* 1360) [Shuffle]_output: 3a45818f
1303: 3ca12118
(Unnamed Layer* 1363) [Shuffle]_output: 0
1304: 3ca12118
(Unnamed Layer* 1366) [Shuffle]_output: 3a3a7dce
1306: 3ca77e0b
(Unnamed Layer* 1369) [Shuffle]_output: 0
1307: 3ca77e0b
(Unnamed Layer* 1372) [Shuffle]_output: 3a3ea3a9
1309: 3ca3fd7b
(Unnamed Layer* 1375) [Shuffle]_output: 0
1310: 3ca3fd7b
1325: 3ca12118
1354: 3ca3fd7b
1355: 3ca77e0b
1356: 3dcc3fc6
(Unnamed Layer* 1418) [Shuffle]_output: 3d810a14
1358: 3c4c3fc6
1359: 519c49b0
(Unnamed Layer* 1421) [Shuffle]_output: 519c49b0
(Unnamed Layer* 1422) [Softmax]_output: 3c010a14
1360: 3c010a14
1361: 3c8e11c7
1374: 3c8e11c7
(Unnamed Layer* 1438) [Shuffle]_output: 3a395b6b
1376: 3c09c720
(Unnamed Layer* 1441) [Shuffle]_output: 0
1377: 3c09c720
1378: 3d1ac52e
1380: 39596fe6
1381: 3d1ed11a
1382: 3d1ed11a
(Unnamed Layer* 1448) [Shuffle]_output: 3c810a14
1384: 3dc730fc
1385: 3c16d48b
(Unnamed Layer* 1452) [Shuffle]_output: 280de15b
1387: 3c16d48b
1388: 3c0a7d0b
1389: 3d146c08
(Unnamed Layer* 1457) [Shuffle]_output: 3c010a14
1390: 3d146c08
(Unnamed Layer* 1460) [Shuffle]_output: 0
1391: 3d146c08
(Unnamed Layer* 1463) [Shuffle]_output: 3a44238f
1393: 3ca96167
(Unnamed Layer* 1466) [Shuffle]_output: 0
1394: 3ca96167
(Unnamed Layer* 1469) [Shuffle]_output: 3c367d3d
1396: 3c6f8a48
1397: 3bff6792
(Unnamed Layer* 1473) [Shuffle]_output: 3c010a14
1399: 3c806651
1400: 3ceaf3b5
(Unnamed Layer* 1477) [Shuffle]_output: 3b810a14
1402: 3c6af3b5
(Unnamed Layer* 1480) [Shuffle]_output: 3a3edd98
1404: 3c57bc3d
(Unnamed Layer* 1483) [Shuffle]_output: 0
1405: 3c57bc3d
1406: 3d1786c4
1408: 39a010fd
1409: 3d18a260
1410: 3d18a260
(Unnamed Layer* 1490) [Shuffle]_output: 3c810a14
1412: 3dd5d727
1413: 3c1c3efd
(Unnamed Layer* 1494) [Shuffle]_output: 280de15b
1415: 3c1c3efd
1416: 3c0ddb08
1417: 3d0f72c4
(Unnamed Layer* 1499) [Shuffle]_output: 3c010a14
1418: 3d0f72c4
(Unnamed Layer* 1502) [Shuffle]_output: 0
1419: 3d0f72c4
(Unnamed Layer* 1505) [Shuffle]_output: 3a388110
1421: 3ca2d78b
(Unnamed Layer* 1508) [Shuffle]_output: 0
1422: 3ca2d78b
(Unnamed Layer* 1511) [Shuffle]_output: 3a371761
1424: 3ca79621
(Unnamed Layer* 1514) [Shuffle]_output: 0
1425: 3ca79621
(Unnamed Layer* 1517) [Shuffle]_output: 3a47c6a3
1427: 3caab8e6
(Unnamed Layer* 1520) [Shuffle]_output: 0
1428: 3caab8e6
1443: 3ca2d78b
1472: 3caab8e6
1473: 3ca79621
1474: 3db7a6ba
(Unnamed Layer* 1563) [Shuffle]_output: 3d810a14
1476: 3c37a6ba
1477: 519c49b0
(Unnamed Layer* 1566) [Shuffle]_output: 519c49b0
(Unnamed Layer* 1567) [Softmax]_output: 3c010a14
1478: 3c010a14
1479: 3c8a4915
1492: 3c8a4915
(Unnamed Layer* 1583) [Shuffle]_output: 3a301fff
1494: 3c15cb6e
(Unnamed Layer* 1586) [Shuffle]_output: 0
1495: 3c15cb6e
1496: 3d1eac5d
1498: 396b3d57
1499: 3d1567c1
1500: 3d1567c1
(Unnamed Layer* 1593) [Shuffle]_output: 3c810a14
1502: 3dd399a5
1503: 3c17ddf7
(Unnamed Layer* 1597) [Shuffle]_output: 280de15b
1505: 3c17ddf7
1506: 3c0b4e28
1507: 3d0e1949
(Unnamed Layer* 1602) [Shuffle]_output: 3c010a14
1508: 3d0e1949
(Unnamed Layer* 1605) [Shuffle]_output: 0
1509: 3d0e1949
(Unnamed Layer* 1608) [Shuffle]_output: 3a40e415
1511: 3ca60203
(Unnamed Layer* 1611) [Shuffle]_output: 0
1512: 3ca60203
(Unnamed Layer* 1614) [Shuffle]_output: 3c367d3d
1514: 3c6ac545
1515: 3bfffd46
(Unnamed Layer* 1618) [Shuffle]_output: 3c010a14
1517: 3c80037c
1518: 3cd82b9e
(Unnamed Layer* 1622) [Shuffle]_output: 3b810a14
1520: 3c582b9e
(Unnamed Layer* 1625) [Shuffle]_output: 3a3fb9ec
1522: 3c50d3a2
(Unnamed Layer* 1628) [Shuffle]_output: 0
1523: 3c50d3a2
1524: 3d20c77c
1526: 39a5e81c
1527: 3d1d198f
1528: 3d1d198f
(Unnamed Layer* 1635) [Shuffle]_output: 3c810a14
1530: 3ddd5520
1531: 3c18ffe7
(Unnamed Layer* 1639) [Shuffle]_output: 280de15b
1533: 3c18ffe7
1534: 3c0ce455
1535: 3d162ccd
(Unnamed Layer* 1644) [Shuffle]_output: 3c010a14
1536: 3d162ccd
(Unnamed Layer* 1647) [Shuffle]_output: 0
1537: 3d162ccd
(Unnamed Layer* 1650) [Shuffle]_output: 3a3b0cb5
1539: 3ca5bee5
(Unnamed Layer* 1653) [Shuffle]_output: 0
1540: 3ca5bee5
(Unnamed Layer* 1656) [Shuffle]_output: 3a3bf4c6
1542: 3ca1f646
(Unnamed Layer* 1659) [Shuffle]_output: 0
1543: 3ca1f646
(Unnamed Layer* 1662) [Shuffle]_output: 3a384e07
1545: 3c9ebd28
(Unnamed Layer* 1665) [Shuffle]_output: 0
1546: 3c9ebd28
1561: 3ca5bee5
1590: 3c9ebd28
1591: 3ca1f646
1592: 3dbb2707
(Unnamed Layer* 1708) [Shuffle]_output: 3d810a14
1594: 3c3b2707
1595: 519c49b0
(Unnamed Layer* 1711) [Shuffle]_output: 519c49b0
(Unnamed Layer* 1712) [Softmax]_output: 3c010a14
1596: 3c010a14
1597: 3c7f1199
1610: 3c7f1199
(Unnamed Layer* 1728) [Shuffle]_output: 3a306b70
1612: 3c180a8d
(Unnamed Layer* 1731) [Shuffle]_output: 0
1613: 3c180a8d
1614: 3d14ff3e
1616: 3926ea60
1617: 3d177e8a
1618: 3d177e8a
(Unnamed Layer* 1738) [Shuffle]_output: 3c810a14
1620: 3dd24c77
1621: 3c1753bf
(Unnamed Layer* 1742) [Shuffle]_output: 280de15b
1623: 3c1753bf
1624: 3c0b1735
1625: 3d10aac5
(Unnamed Layer* 1747) [Shuffle]_output: 3c010a14
1626: 3d10aac5
(Unnamed Layer* 1750) [Shuffle]_output: 0
1627: 3d10aac5
(Unnamed Layer* 1753) [Shuffle]_output: 3a43c9fe
1629: 3ca57001
(Unnamed Layer* 1756) [Shuffle]_output: 0
1630: 3ca57001
(Unnamed Layer* 1759) [Shuffle]_output: 3c367d3d
1632: 3c69f6c8
1633: 3c00279a
(Unnamed Layer* 1763) [Shuffle]_output: 3c010a14
1635: 3c7f9f21
1636: 3ceac410
(Unnamed Layer* 1767) [Shuffle]_output: 3b810a14
1638: 3c6ac410
(Unnamed Layer* 1770) [Shuffle]_output: 3a47fd9d
1640: 3c55c7f4
(Unnamed Layer* 1773) [Shuffle]_output: 0
1641: 3c55c7f4
1642: 3d18cc49
1644: 398c1cc2
1645: 3d20e9f0
1646: 3d20e9f0
(Unnamed Layer* 1780) [Shuffle]_output: 3c810a14
1648: 3dd99333
1649: 3c1e7f3b
(Unnamed Layer* 1784) [Shuffle]_output: 280de15b
1651: 3c1e7f3b
1652: 3c0f03de
1653: 3d0f7ca0
(Unnamed Layer* 1789) [Shuffle]_output: 3c010a14
1654: 3d0f7ca0
(Unnamed Layer* 1792) [Shuffle]_output: 0
1655: 3d0f7ca0
1657: 3cfd56e4
1658: 3c7c5ef9
1659: 3bfa9c8a
1660: 3ba3769b
